{
  "version": "1.0",
  "truncation": null,
  "padding": null,
  "added_tokens": [
    {
      "id": 0,
      "content": "<unk>",
      "single_word": false,
      "lstrip": false,
      "rstrip": false,
      "normalized": false,
      "special": true
    }
  ],
  "normalizer": null,
  "pre_tokenizer": {
    "type": "Whitespace"
  },
  "post_processor": null,
  "decoder": null,
  "model": {
    "type": "BPE",
    "dropout": null,
    "unk_token": "<unk>",
    "continuing_subword_prefix": null,
    "end_of_word_suffix": null,
    "fuse_unk": false,
    "byte_fallback": false,
    "ignore_merges": false,
    "vocab": {
      "<unk>": 0,
      "!": 1,
      "$": 2,
      "&": 3,
      "'": 4,
      ",": 5,
      "-": 6,
      ".": 7,
      "3": 8,
      ":": 9,
      ";": 10,
      "?": 11,
      "A": 12,
      "B": 13,
      "C": 14,
      "D": 15,
      "E": 16,
      "F": 17,
      "G": 18,
      "H": 19,
      "I": 20,
      "J": 21,
      "K": 22,
      "L": 23,
      "M": 24,
      "N": 25,
      "O": 26,
      "P": 27,
      "Q": 28,
      "R": 29,
      "S": 30,
      "T": 31,
      "U": 32,
      "V": 33,
      "W": 34,
      "X": 35,
      "Y": 36,
      "Z": 37,
      "a": 38,
      "b": 39,
      "c": 40,
      "d": 41,
      "e": 42,
      "f": 43,
      "g": 44,
      "h": 45,
      "i": 46,
      "j": 47,
      "k": 48,
      "l": 49,
      "m": 50,
      "n": 51,
      "o": 52,
      "p": 53,
      "q": 54,
      "r": 55,
      "s": 56,
      "t": 57,
      "u": 58,
      "v": 59,
      "w": 60,
      "x": 61,
      "y": 62,
      "z": 63,
      "th": 64,
      "ou": 65,
      "er": 66,
      "in": 67,
      "an": 68,
      "the": 69,
      "or": 70,
      "is": 71,
      "en": 72,
      "ar": 73,
      "at": 74,
      "on": 75,
      "st": 76,
      "ll": 77,
      "me": 78,
      "to": 79,
      "and": 80,
      "he": 81,
      "you": 82,
      "es": 83,
      "no": 84,
      "se": 85,
      "ha": 86,
      "re": 87,
      "of": 88,
      "ve": 89,
      "it": 90,
      "ing": 91,
      "be": 92,
      "le": 93,
      "wi": 94,
      "my": 95,
      "hi": 96,
      "ow": 97,
      "ce": 98,
      "for": 99,
      "ay": 100,
      "as": 101,
      "ch": 102,
      "nd": 103,
      "ere": 104,
      "ld": 105,
      "ir": 106,
      "ed": 107,
      "ut": 108,
      "ro": 109,
      "not": 110,
      "li": 111,
      "de": 112,
      "we": 113,
      "hat": 114,
      "that": 115,
      "gh": 116,
      "And": 117,
      "ke": 118,
      "oo": 119,
      "our": 120,
      "with": 121,
      "ome": 122,
      "ent": 123,
      "his": 124,
      "ri": 125,
      "your": 126,
      "thou": 127,
      "ther": 128,
      "ad": 129,
      "al": 130,
      "et": 131,
      "all": 132,
      "ght": 133,
      "EN": 134,
      "ur": 135,
      "us": 136,
      "have": 137,
      "him": 138,
      "IN": 139,
      "ly": 140,
      "so": 141,
      "ra": 142,
      "this": 143,
      "IO": 144,
      "ord": 145,
      "do": 146,
      "un": 147,
      "ho": 148,
      "ma": 149,
      "ess": 150,
      "pe": 151,
      "fe": 152,
      "AR": 153,
      "ould": 154,
      "are": 155,
      "lo": 156,
      "here": 157,
      "ood": 158,
      "id": 159,
      "thy": 160,
      "ver": 161,
      "fa": 162,
      "ck": 163,
      "one": 164,
      "man": 165,
      "ti": 166,
      "The": 167,
      "sha": 168,
      "now": 169,
      "am": 170,
      "will": 171,
      "ne": 172,
      "ge": 173,
      "ain": 174,
      "but": 175,
      "su": 176,
      "ard": 177,
      "her": 178,
      "US": 179,
      "ter": 180,
      "con": 181,
      "pr": 182,
      "Th": 183,
      "To": 184,
      "end": 185,
      "by": 186,
      "thee": 187,
      "ue": 188,
      "om": 189,
      "la": 190,
      "shall": 191,
      "art": 192,
      "mor": 193,
      "up": 194,
      "UC": 195,
      "sh": 196,
      "come": 197,
      "po": 198,
      "ING": 199,
      "rom": 200,
      "own": 201,
      "AN": 202,
      "ust": 203,
      "That": 204,
      "ta": 205,
      "tr": 206,
      "what": 207,
      "ER": 208,
      "OR": 209,
      "ous": 210,
      "mo": 211,
      "sel": 212,
      "ET": 213,
      "te": 214,
      "ES": 215,
      "go": 216,
      "good": 217,
      "if": 218,
      "ill": 219,
      "But": 220,
      "ine": 221,
      "ath": 222,
      "hen": 223,
      "ble": 224,
      "ight": 225,
      "lord": 226,
      "ion": 227,
      "hich": 228,
      "king": 229,
      "What": 230,
      "was": 231,
      "bo": 232,
      "il": 233,
      "ant": 234,
      "KING": 235,
      "ven": 236,
      "she": 237,
      "ca": 238,
      "ul": 239,
      "from": 240,
      "bl": 241,
      "ong": 242,
      "more": 243,
      "For": 244,
      "well": 245,
      "sa": 246,
      "them": 247,
      "IC": 248,
      "ak": 249,
      "sir": 250,
      "self": 251,
      "ind": 252,
      "would": 253,
      "there": 254,
      "wor": 255,
      "love": 256,
      "can": 257,
      "know": 258,
      "per": 259,
      "ct": 260,
      "out": 261,
      "ive": 262,
      "EL": 263,
      "ate": 264,
      "com": 265,
      "say": 266,
      "then": 267,
      "see": 268,
      "IUS": 269,
      "let": 270,
      "ARD": 271,
      "their": 272,
      "My": 273,
      "di": 274,
      "than": 275,
      "ci": 276,
      "ry": 277,
      "--": 278,
      "they": 279,
      "fore": 280,
      "ence": 281,
      "ag": 282,
      "ep": 283,
      "ear": 284,
      "like": 285,
      "spe": 286,
      "Go": 287,
      "ers": 288,
      "hy": 289,
      "may": 290,
      "LO": 291,
      "bro": 292,
      "um": 293,
      "were": 294,
      "way": 295,
      "As": 296,
      "pro": 297,
      "ast": 298,
      "We": 299,
      "ves": 300,
      "ish": 301,
      "ink": 302,
      "KE": 303,
      "time": 304,
      "hath": 305,
      "II": 306,
      "qu": 307,
      "No": 308,
      "ure": 309,
      "irst": 310,
      "He": 311,
      "make": 312,
      "ol": 313,
      "ple": 314,
      "You": 315,
      "who": 316,
      "thing": 317,
      "row": 318,
      "must": 319,
      "gra": 320,
      "ound": 321,
      "ith": 322,
      "ap": 323,
      "ave": 324,
      "some": 325,
      "ook": 326,
      "should": 327,
      "OL": 328,
      "father": 329,
      "fi": 330,
      "LA": 331,
      "RO": 332,
      "TIO": 333,
      "use": 334,
      "ity": 335,
      "too": 336,
      "had": 337,
      "upon": 338,
      "son": 339,
      "did": 340,
      "CA": 341,
      "day": 342,
      "ig": 343,
      "ance": 344,
      "ward": 345,
      "ON": 346,
      "dis": 347,
      "how": 348,
      "wo": 349,
      "which": 350,
      "death": 351,
      "oun": 352,
      "reat": 353,
      "IS": 354,
      "word": 355,
      "fri": 356,
      "If": 357,
      "sp": 358,
      "when": 359,
      "est": 360,
      "men": 361,
      "speak": 362,
      "entle": 363,
      "In": 364,
      "heart": 365,
      "ICH": 366,
      "again": 367,
      "RICH": 368,
      "ful": 369,
      "vi": 370,
      "DU": 371,
      "DUKE": 372,
      "hand": 373,
      "yet": 374,
      "old": 375,
      "mar": 376,
      "el": 377,
      "Thou": 378,
      "UL": 379,
      "mine": 380,
      "very": 381,
      "think": 382,
      "RICHARD": 383,
      "ENTIO": 384,
      "take": 385,
      "Which": 386,
      "pl": 387,
      "si": 388,
      "swe": 389,
      "ac": 390,
      "God": 391,
      "hear": 392,
      "Be": 393,
      "With": 394,
      "ince": 395,
      "INC": 396,
      "str": 397,
      "ign": 398,
      "Why": 399,
      "give": 400,
      "Of": 401,
      "na": 402,
      "such": 403,
      "First": 404,
      "land": 405,
      "ang": 406,
      "AB": 407,
      "ness": 408,
      "uch": 409,
      "most": 410,
      "blood": 411,
      "des": 412,
      "ex": 413,
      "ster": 414,
      "brother": 415,
      "br": 416,
      "these": 417,
      "hea": 418,
      "tell": 419,
      "tis": 420,
      "any": 421,
      "ba": 422,
      "ey": 423,
      "UE": 424,
      "ise": 425,
      "onour": 426,
      "bre": 427,
      "other": 428,
      "im": 429,
      "where": 430,
      "How": 431,
      "que": 432,
      "llow": 433,
      "Come": 434,
      "less": 435,
      "ty": 436,
      "arm": 437,
      "life": 438,
      "This": 439,
      "TER": 440,
      "coun": 441,
      "look": 442,
      "new": 443,
      "So": 444,
      "ort": 445,
      "UCH": 446,
      "Who": 447,
      "friend": 448,
      "gentle": 449,
      "oul": 450,
      "GLO": 451,
      "ught": 452,
      "vo": 453,
      "UCES": 454,
      "GLOUCES": 455,
      "GLOUCESTER": 456,
      "chi": 457,
      "ars": 458,
      "af": 459,
      "mis": 460,
      "ving": 461,
      "hast": 462,
      "ady": 463,
      "Lord": 464,
      "ab": 465,
      "urse": 466,
      "ts": 467,
      "Rome": 468,
      "RY": 469,
      "night": 470,
      "rown": 471,
      "off": 472,
      "fair": 473,
      "made": 474,
      "age": 475,
      "LE": 476,
      "QUE": 477,
      "VINC": 478,
      "QUEEN": 479,
      "VINCENTIO": 480,
      "honour": 481,
      "OF": 482,
      "Se": 483,
      "much": 484,
      "ans": 485,
      "tion": 486,
      "ond": 487,
      "Is": 488,
      "Where": 489,
      "lie": 490,
      "urn": 491,
      "UM": 492,
      "LAN": 493,
      "stand": 494,
      "Mar": 495,
      "pre": 496,
      "HEN": 497,
      "cond": 498,
      "Now": 499,
      "che": 500,
      "name": 501,
      "tle": 502,
      "em": 503,
      "ef": 504,
      "HENRY": 505,
      "ng": 506,
      "ber": 507,
      "part": 508,
      "never": 509,
      "fear": 510,
      "io": 511,
      "Your": 512,
      "ces": 513,
      "ies": 514,
      "lt": 515,
      "live": 516,
      "ower": 517,
      "jo": 518,
      "ser": 519,
      "uke": 520,
      "It": 521,
      "call": 522,
      "great": 523,
      "ass": 524,
      "YOR": 525,
      "fo": 526,
      "head": 527,
      "YORK": 528,
      "ree": 529,
      "ment": 530,
      "und": 531,
      "Or": 532,
      "ation": 533,
      "INIUS": 534,
      "ever": 535,
      "pray": 536,
      "cannot": 537,
      "red": 538,
      "true": 539,
      "heaven": 540,
      "PET": 541,
      "ase": 542,
      "noble": 543,
      "fl": 544,
      "pa": 545,
      "been": 546,
      "sweet": 547,
      "fort": 548,
      "An": 549,
      "DW": 550,
      "EDW": 551,
      "co": 552,
      "EDWARD": 553,
      "GR": 554,
      "done": 555,
      "mer": 556,
      "bet": 557,
      ",--": 558,
      "TH": 559,
      "doth": 560,
      "iz": 561,
      "nor": 562,
      "ough": 563,
      "LUC": 564,
      "MEN": 565,
      "pt": 566,
      "res": 567,
      "Ay": 568,
      "da": 569,
      "pp": 570,
      "ull": 571,
      "war": 572,
      "ouse": 573,
      "There": 574,
      "ie": 575,
      "comm": 576,
      "gr": 577,
      "int": 578,
      "When": 579,
      "rest": 580,
      "Ed": 581,
      "wr": 582,
      "bear": 583,
      "ME": 584,
      "UT": 585,
      "grace": 586,
      "soul": 587,
      "before": 588,
      "ROME": 589,
      "Edward": 590,
      "ROMEO": 591,
      "By": 592,
      "sc": 593,
      "ss": 594,
      "ENIUS": 595,
      "both": 596,
      "world": 597,
      "MENENIUS": 598,
      "Ri": 599,
      "queen": 600,
      "ace": 601,
      "Here": 602,
      "Let": 603,
      "Then": 604,
      "comes": 605,
      "ughter": 606,
      "RUCH": 607,
      "down": 608,
      "pri": 609,
      "orn": 610,
      "dead": 611,
      "PETRUCH": 612,
      "PETRUCHIO": 613,
      "OM": 614,
      "ings": 615,
      "TES": 616,
      "long": 617,
      "ved": 618,
      "ite": 619,
      "pres": 620,
      "ake": 621,
      "ice": 622,
      "being": 623,
      "wick": 624,
      "Than": 625,
      "ru": 626,
      "leave": 627,
      "myself": 628,
      "hold": 629,
      "mother": 630,
      "Cl": 631,
      "HA": 632,
      "MAR": 633,
      "ore": 634,
      "set": 635,
      "cour": 636,
      "house": 637,
      "put": 638,
      "thus": 639,
      "cause": 640,
      "COR": 641,
      "IZ": 642,
      "op": 643,
      "ret": 644,
      "IOLAN": 645,
      "CORIOLAN": 646,
      "CORIOLANUS": 647,
      "Nor": 648,
      "tri": 649,
      "wife": 650,
      "Second": 651,
      "der": 652,
      "uck": 653,
      "whi": 654,
      "beg": 655,
      "eyes": 656,
      "deed": 657,
      "thought": 658,
      "BA": 659,
      "cl": 660,
      "Rich": 661,
      "dy": 662,
      "child": 663,
      "INA": 664,
      "poor": 665,
      "Do": 666,
      "She": 667,
      "itiz": 668,
      "die": 669,
      "itizen": 670,
      "foo": 671,
      "tra": 672,
      "led": 673,
      "away": 674,
      "IV": 675,
      "right": 676,
      "friends": 677,
      "ds": 678,
      "III": 679,
      "Sir": 680,
      "might": 681,
      "crown": 682,
      "ks": 683,
      "pla": 684,
      "atch": 685,
      "atter": 686,
      "stay": 687,
      "light": 688,
      "bid": 689,
      "ten": 690,
      "many": 691,
      "War": 692,
      "ft": 693,
      "ins": 694,
      "Warwick": 695,
      "ach": 696,
      "gri": 697,
      "lit": 698,
      "His": 699,
      "tre": 700,
      "Tis": 701,
      "ps": 702,
      "ison": 703,
      "pose": 704,
      "ELLA": 705,
      "cious": 706,
      "ISAB": 707,
      "ISABELLA": 708,
      "mi": 709,
      "ange": 710,
      "nothing": 711,
      "Romeo": 712,
      "daughter": 713,
      "RAN": 714,
      "bra": 715,
      "gone": 716,
      "kind": 717,
      "tal": 718,
      "tong": 719,
      "face": 720,
      "Well": 721,
      "mad": 722,
      "better": 723,
      "IET": 724,
      "JUL": 725,
      "kes": 726,
      "ose": 727,
      "par": 728,
      "ford": 729,
      "till": 730,
      "ONTES": 731,
      "LEONTES": 732,
      "JULIET": 733,
      "Nay": 734,
      "VI": 735,
      "gu": 736,
      "eng": 737,
      "though": 738,
      "prince": 739,
      "words": 740,
      "IL": 741,
      "ted": 742,
      "DY": 743,
      "able": 744,
      "ors": 745,
      "une": 746,
      "ears": 747,
      "LADY": 748,
      "CE": 749,
      "ST": 750,
      "VOL": 751,
      "wer": 752,
      "ENCE": 753,
      "show": 754,
      "BR": 755,
      "TA": 756,
      "ban": 757,
      "ither": 758,
      "tend": 759,
      "news": 760,
      "CL": 761,
      "Citizen": 762,
      "Ser": 763,
      "ic": 764,
      "sent": 765,
      "best": 766,
      "urder": 767,
      "against": 768,
      "Pro": 769,
      "those": 770,
      "joy": 771,
      "SIC": 772,
      "band": 773,
      "hour": 774,
      "sle": 775,
      "hence": 776,
      "lords": 777,
      "little": 778,
      "SICINIUS": 779,
      "far": 780,
      "tent": 781,
      "Sha": 782,
      "cy": 783,
      "ction": 784,
      "ardon": 785,
      "Un": 786,
      "pur": 787,
      "keep": 788,
      "tain": 789,
      "two": 790,
      "still": 791,
      "hel": 792,
      "char": 793,
      "dear": 794,
      "law": 795,
      "GRE": 796,
      "den": 797,
      "power": 798,
      "mean": 799,
      "forth": 800,
      "roy": 801,
      "himself": 802,
      "Not": 803,
      "full": 804,
      "Thy": 805,
      "back": 806,
      "LUCIO": 807,
      "its": 808,
      "unto": 809,
      "sub": 810,
      "Richard": 811,
      "Have": 812,
      "ech": 813,
      "peace": 814,
      "therefore": 815,
      "Will": 816,
      "bes": 817,
      "first": 818,
      "ren": 819,
      "iness": 820,
      "else": 821,
      "tongue": 822,
      "Yor": 823,
      "could": 824,
      "duke": 825,
      "high": 826,
      "ason": 827,
      "ried": 828,
      "hope": 829,
      "cut": 830,
      "hus": 831,
      "ought": 832,
      "ark": 833,
      "need": 834,
      "conf": 835,
      "find": 836,
      "lady": 837,
      "nat": 838,
      "thine": 839,
      "young": 840,
      "ETH": 841,
      "ELIZ": 842,
      "earth": 843,
      "ABETH": 844,
      "under": 845,
      "York": 846,
      "ELIZABETH": 847,
      "Good": 848,
      "cha": 849,
      "dre": 850,
      "thr": 851,
      "came": 852,
      "IAN": 853,
      "get": 854,
      "home": 855,
      "je": 856,
      "just": 857,
      "mind": 858,
      "ople": 859,
      "ran": 860,
      "master": 861,
      "Hen": 862,
      "Yet": 863,
      "once": 864,
      "people": 865,
      "husband": 866,
      "Henry": 867,
      "IA": 868,
      "pass": 869,
      "arewell": 870,
      "seem": 871,
      "place": 872,
      "PER": 873,
      "lay": 874,
      "sor": 875,
      "happ": 876,
      "qui": 877,
      "after": 878,
      "All": 879,
      "WAR": 880,
      "WIC": 881,
      "cle": 882,
      "fall": 883,
      "ste": 884,
      "Shall": 885,
      "WARWIC": 886,
      "WARWICK": 887,
      "vant": 888,
      "why": 889,
      "ister": 890,
      "bed": 891,
      "wel": 892,
      "fellow": 893,
      "follow": 894,
      "Nurse": 895,
      "last": 896,
      "none": 897,
      "They": 898,
      "please": 899,
      "HAM": 900,
      "PUL": 901,
      "dr": 902,
      "gi": 903,
      "hor": 904,
      "pardon": 905,
      "rep": 906,
      "hither": 907,
      "morrow": 908,
      "tru": 909,
      "said": 910,
      "CAPUL": 911,
      "CAPULET": 912,
      "bu": 913,
      "dou": 914,
      "every": 915,
      "gl": 916,
      "oud": 917,
      "hands": 918,
      "bring": 919,
      "MIO": 920,
      "gue": 921,
      "kill": 922,
      "pat": 923,
      "ousin": 924,
      "boy": 925,
      "woman": 926,
      "shi": 927,
      "shame": 928,
      "try": 929,
      "BUC": 930,
      "cent": 931,
      "mber": 932,
      "heard": 933,
      "tem": 934,
      "KINGHAM": 935,
      "UTUS": 936,
      "BRUTUS": 937,
      "BUCKINGHAM": 938,
      "BOL": 939,
      "BRO": 940,
      "From": 941,
      "TRAN": 942,
      "bus": 943,
      "clo": 944,
      "dra": 945,
      "ff": 946,
      "ius": 947,
      "jest": 948,
      "ates": 949,
      "INGBRO": 950,
      "ESS": 951,
      "LAU": 952,
      "BOLINGBRO": 953,
      "TRANIO": 954,
      "BOLINGBROKE": 955,
      "MIL": 956,
      "car": 957,
      "sand": 958,
      "uty": 959,
      "tears": 960,
      "whose": 961,
      "vost": 962,
      "present": 963,
      "Our": 964,
      "TIS": 965,
      "bri": 966,
      "ken": 967,
      "vy": 968,
      "maid": 969,
      "comp": 970,
      "royal": 971,
      "cer": 972,
      "cur": 973,
      "cess": 974,
      "sen": 975,
      "since": 976,
      "wit": 977,
      "state": 978,
      "lack": 979,
      "wrong": 980,
      "GAR": 981,
      "King": 982,
      "NE": 983,
      "fal": 984,
      "gar": 985,
      "meet": 986,
      "MARGAR": 987,
      "sorrow": 988,
      "MARGARET": 989,
      "ATH": 990,
      "gain": 991,
      "sun": 992,
      "prison": 993,
      "eye": 994,
      "On": 995,
      "vir": 996,
      "whom": 997,
      "CAL": 998,
      "while": 999,
      "help": 1000,
      "Bo": 1001,
      "GEL": 1002,
      "HOR": 1003,
      "gen": 1004,
      "les": 1005,
      "ning": 1006,
      "pi": 1007,
      "ting": 1008,
      "vere": 1009,
      "xt": 1010,
      "reme": 1011,
      "ition": 1012,
      "thousand": 1013,
      "ANGEL": 1014,
      "tress": 1015,
      "ORD": 1016,
      "selves": 1017,
      "gracious": 1018,
      "about": 1019,
      "answer": 1020,
      "Clar": 1021,
      "ANGELO": 1022,
      "CU": 1023
    },
    "merges": [
      [
        "t",
        "h"
      ],
      [
        "o",
        "u"
      ],
      [
        "e",
        "r"
      ],
      [
        "i",
        "n"
      ],
      [
        "a",
        "n"
      ],
      [
        "th",
        "e"
      ],
      [
        "o",
        "r"
      ],
      [
        "i",
        "s"
      ],
      [
        "e",
        "n"
      ],
      [
        "a",
        "r"
      ],
      [
        "a",
        "t"
      ],
      [
        "o",
        "n"
      ],
      [
        "s",
        "t"
      ],
      [
        "l",
        "l"
      ],
      [
        "m",
        "e"
      ],
      [
        "t",
        "o"
      ],
      [
        "an",
        "d"
      ],
      [
        "h",
        "e"
      ],
      [
        "y",
        "ou"
      ],
      [
        "e",
        "s"
      ],
      [
        "n",
        "o"
      ],
      [
        "s",
        "e"
      ],
      [
        "h",
        "a"
      ],
      [
        "r",
        "e"
      ],
      [
        "o",
        "f"
      ],
      [
        "v",
        "e"
      ],
      [
        "i",
        "t"
      ],
      [
        "in",
        "g"
      ],
      [
        "b",
        "e"
      ],
      [
        "l",
        "e"
      ],
      [
        "w",
        "i"
      ],
      [
        "m",
        "y"
      ],
      [
        "h",
        "i"
      ],
      [
        "o",
        "w"
      ],
      [
        "c",
        "e"
      ],
      [
        "f",
        "or"
      ],
      [
        "a",
        "y"
      ],
      [
        "a",
        "s"
      ],
      [
        "c",
        "h"
      ],
      [
        "n",
        "d"
      ],
      [
        "er",
        "e"
      ],
      [
        "l",
        "d"
      ],
      [
        "i",
        "r"
      ],
      [
        "e",
        "d"
      ],
      [
        "u",
        "t"
      ],
      [
        "r",
        "o"
      ],
      [
        "no",
        "t"
      ],
      [
        "l",
        "i"
      ],
      [
        "d",
        "e"
      ],
      [
        "w",
        "e"
      ],
      [
        "h",
        "at"
      ],
      [
        "th",
        "at"
      ],
      [
        "g",
        "h"
      ],
      [
        "A",
        "nd"
      ],
      [
        "k",
        "e"
      ],
      [
        "o",
        "o"
      ],
      [
        "ou",
        "r"
      ],
      [
        "wi",
        "th"
      ],
      [
        "o",
        "me"
      ],
      [
        "en",
        "t"
      ],
      [
        "h",
        "is"
      ],
      [
        "r",
        "i"
      ],
      [
        "you",
        "r"
      ],
      [
        "th",
        "ou"
      ],
      [
        "th",
        "er"
      ],
      [
        "a",
        "d"
      ],
      [
        "a",
        "l"
      ],
      [
        "e",
        "t"
      ],
      [
        "a",
        "ll"
      ],
      [
        "gh",
        "t"
      ],
      [
        "E",
        "N"
      ],
      [
        "u",
        "r"
      ],
      [
        "u",
        "s"
      ],
      [
        "ha",
        "ve"
      ],
      [
        "hi",
        "m"
      ],
      [
        "I",
        "N"
      ],
      [
        "l",
        "y"
      ],
      [
        "s",
        "o"
      ],
      [
        "r",
        "a"
      ],
      [
        "th",
        "is"
      ],
      [
        "I",
        "O"
      ],
      [
        "or",
        "d"
      ],
      [
        "d",
        "o"
      ],
      [
        "u",
        "n"
      ],
      [
        "h",
        "o"
      ],
      [
        "m",
        "a"
      ],
      [
        "es",
        "s"
      ],
      [
        "p",
        "e"
      ],
      [
        "f",
        "e"
      ],
      [
        "A",
        "R"
      ],
      [
        "ou",
        "ld"
      ],
      [
        "ar",
        "e"
      ],
      [
        "l",
        "o"
      ],
      [
        "h",
        "ere"
      ],
      [
        "oo",
        "d"
      ],
      [
        "i",
        "d"
      ],
      [
        "th",
        "y"
      ],
      [
        "v",
        "er"
      ],
      [
        "f",
        "a"
      ],
      [
        "c",
        "k"
      ],
      [
        "on",
        "e"
      ],
      [
        "m",
        "an"
      ],
      [
        "t",
        "i"
      ],
      [
        "T",
        "he"
      ],
      [
        "s",
        "ha"
      ],
      [
        "no",
        "w"
      ],
      [
        "a",
        "m"
      ],
      [
        "wi",
        "ll"
      ],
      [
        "n",
        "e"
      ],
      [
        "g",
        "e"
      ],
      [
        "a",
        "in"
      ],
      [
        "b",
        "ut"
      ],
      [
        "s",
        "u"
      ],
      [
        "ar",
        "d"
      ],
      [
        "h",
        "er"
      ],
      [
        "U",
        "S"
      ],
      [
        "t",
        "er"
      ],
      [
        "c",
        "on"
      ],
      [
        "p",
        "r"
      ],
      [
        "T",
        "h"
      ],
      [
        "T",
        "o"
      ],
      [
        "en",
        "d"
      ],
      [
        "b",
        "y"
      ],
      [
        "the",
        "e"
      ],
      [
        "u",
        "e"
      ],
      [
        "o",
        "m"
      ],
      [
        "l",
        "a"
      ],
      [
        "sha",
        "ll"
      ],
      [
        "ar",
        "t"
      ],
      [
        "m",
        "or"
      ],
      [
        "u",
        "p"
      ],
      [
        "U",
        "C"
      ],
      [
        "s",
        "h"
      ],
      [
        "c",
        "ome"
      ],
      [
        "p",
        "o"
      ],
      [
        "IN",
        "G"
      ],
      [
        "ro",
        "m"
      ],
      [
        "ow",
        "n"
      ],
      [
        "A",
        "N"
      ],
      [
        "u",
        "st"
      ],
      [
        "T",
        "hat"
      ],
      [
        "t",
        "a"
      ],
      [
        "t",
        "r"
      ],
      [
        "w",
        "hat"
      ],
      [
        "E",
        "R"
      ],
      [
        "O",
        "R"
      ],
      [
        "ou",
        "s"
      ],
      [
        "m",
        "o"
      ],
      [
        "se",
        "l"
      ],
      [
        "E",
        "T"
      ],
      [
        "t",
        "e"
      ],
      [
        "E",
        "S"
      ],
      [
        "g",
        "o"
      ],
      [
        "g",
        "ood"
      ],
      [
        "i",
        "f"
      ],
      [
        "i",
        "ll"
      ],
      [
        "B",
        "ut"
      ],
      [
        "in",
        "e"
      ],
      [
        "a",
        "th"
      ],
      [
        "h",
        "en"
      ],
      [
        "b",
        "le"
      ],
      [
        "i",
        "ght"
      ],
      [
        "l",
        "ord"
      ],
      [
        "i",
        "on"
      ],
      [
        "hi",
        "ch"
      ],
      [
        "k",
        "ing"
      ],
      [
        "W",
        "hat"
      ],
      [
        "w",
        "as"
      ],
      [
        "b",
        "o"
      ],
      [
        "i",
        "l"
      ],
      [
        "an",
        "t"
      ],
      [
        "K",
        "ING"
      ],
      [
        "v",
        "en"
      ],
      [
        "s",
        "he"
      ],
      [
        "c",
        "a"
      ],
      [
        "u",
        "l"
      ],
      [
        "f",
        "rom"
      ],
      [
        "b",
        "l"
      ],
      [
        "on",
        "g"
      ],
      [
        "mor",
        "e"
      ],
      [
        "F",
        "or"
      ],
      [
        "we",
        "ll"
      ],
      [
        "s",
        "a"
      ],
      [
        "the",
        "m"
      ],
      [
        "I",
        "C"
      ],
      [
        "a",
        "k"
      ],
      [
        "s",
        "ir"
      ],
      [
        "sel",
        "f"
      ],
      [
        "in",
        "d"
      ],
      [
        "w",
        "ould"
      ],
      [
        "th",
        "ere"
      ],
      [
        "w",
        "or"
      ],
      [
        "lo",
        "ve"
      ],
      [
        "c",
        "an"
      ],
      [
        "k",
        "now"
      ],
      [
        "p",
        "er"
      ],
      [
        "c",
        "t"
      ],
      [
        "ou",
        "t"
      ],
      [
        "i",
        "ve"
      ],
      [
        "E",
        "L"
      ],
      [
        "at",
        "e"
      ],
      [
        "c",
        "om"
      ],
      [
        "s",
        "ay"
      ],
      [
        "the",
        "n"
      ],
      [
        "se",
        "e"
      ],
      [
        "I",
        "US"
      ],
      [
        "le",
        "t"
      ],
      [
        "AR",
        "D"
      ],
      [
        "the",
        "ir"
      ],
      [
        "M",
        "y"
      ],
      [
        "d",
        "i"
      ],
      [
        "th",
        "an"
      ],
      [
        "c",
        "i"
      ],
      [
        "r",
        "y"
      ],
      [
        "-",
        "-"
      ],
      [
        "the",
        "y"
      ],
      [
        "for",
        "e"
      ],
      [
        "en",
        "ce"
      ],
      [
        "a",
        "g"
      ],
      [
        "e",
        "p"
      ],
      [
        "e",
        "ar"
      ],
      [
        "li",
        "ke"
      ],
      [
        "s",
        "pe"
      ],
      [
        "G",
        "o"
      ],
      [
        "er",
        "s"
      ],
      [
        "h",
        "y"
      ],
      [
        "m",
        "ay"
      ],
      [
        "L",
        "O"
      ],
      [
        "b",
        "ro"
      ],
      [
        "u",
        "m"
      ],
      [
        "w",
        "ere"
      ],
      [
        "w",
        "ay"
      ],
      [
        "A",
        "s"
      ],
      [
        "p",
        "ro"
      ],
      [
        "a",
        "st"
      ],
      [
        "W",
        "e"
      ],
      [
        "v",
        "es"
      ],
      [
        "is",
        "h"
      ],
      [
        "in",
        "k"
      ],
      [
        "K",
        "E"
      ],
      [
        "ti",
        "me"
      ],
      [
        "ha",
        "th"
      ],
      [
        "I",
        "I"
      ],
      [
        "q",
        "u"
      ],
      [
        "N",
        "o"
      ],
      [
        "u",
        "re"
      ],
      [
        "ir",
        "st"
      ],
      [
        "H",
        "e"
      ],
      [
        "ma",
        "ke"
      ],
      [
        "o",
        "l"
      ],
      [
        "p",
        "le"
      ],
      [
        "Y",
        "ou"
      ],
      [
        "w",
        "ho"
      ],
      [
        "th",
        "ing"
      ],
      [
        "r",
        "ow"
      ],
      [
        "m",
        "ust"
      ],
      [
        "g",
        "ra"
      ],
      [
        "ou",
        "nd"
      ],
      [
        "i",
        "th"
      ],
      [
        "a",
        "p"
      ],
      [
        "a",
        "ve"
      ],
      [
        "s",
        "ome"
      ],
      [
        "oo",
        "k"
      ],
      [
        "sh",
        "ould"
      ],
      [
        "O",
        "L"
      ],
      [
        "fa",
        "ther"
      ],
      [
        "f",
        "i"
      ],
      [
        "L",
        "A"
      ],
      [
        "R",
        "O"
      ],
      [
        "T",
        "IO"
      ],
      [
        "u",
        "se"
      ],
      [
        "it",
        "y"
      ],
      [
        "to",
        "o"
      ],
      [
        "ha",
        "d"
      ],
      [
        "up",
        "on"
      ],
      [
        "s",
        "on"
      ],
      [
        "d",
        "id"
      ],
      [
        "C",
        "A"
      ],
      [
        "d",
        "ay"
      ],
      [
        "i",
        "g"
      ],
      [
        "an",
        "ce"
      ],
      [
        "w",
        "ard"
      ],
      [
        "O",
        "N"
      ],
      [
        "d",
        "is"
      ],
      [
        "h",
        "ow"
      ],
      [
        "w",
        "o"
      ],
      [
        "w",
        "hich"
      ],
      [
        "de",
        "ath"
      ],
      [
        "ou",
        "n"
      ],
      [
        "re",
        "at"
      ],
      [
        "I",
        "S"
      ],
      [
        "w",
        "ord"
      ],
      [
        "f",
        "ri"
      ],
      [
        "I",
        "f"
      ],
      [
        "s",
        "p"
      ],
      [
        "w",
        "hen"
      ],
      [
        "e",
        "st"
      ],
      [
        "m",
        "en"
      ],
      [
        "spe",
        "ak"
      ],
      [
        "ent",
        "le"
      ],
      [
        "I",
        "n"
      ],
      [
        "he",
        "art"
      ],
      [
        "IC",
        "H"
      ],
      [
        "ag",
        "ain"
      ],
      [
        "R",
        "ICH"
      ],
      [
        "f",
        "ul"
      ],
      [
        "v",
        "i"
      ],
      [
        "D",
        "U"
      ],
      [
        "DU",
        "KE"
      ],
      [
        "h",
        "and"
      ],
      [
        "y",
        "et"
      ],
      [
        "o",
        "ld"
      ],
      [
        "m",
        "ar"
      ],
      [
        "e",
        "l"
      ],
      [
        "Th",
        "ou"
      ],
      [
        "U",
        "L"
      ],
      [
        "m",
        "ine"
      ],
      [
        "ver",
        "y"
      ],
      [
        "th",
        "ink"
      ],
      [
        "RICH",
        "ARD"
      ],
      [
        "EN",
        "TIO"
      ],
      [
        "ta",
        "ke"
      ],
      [
        "W",
        "hich"
      ],
      [
        "p",
        "l"
      ],
      [
        "s",
        "i"
      ],
      [
        "s",
        "we"
      ],
      [
        "a",
        "c"
      ],
      [
        "Go",
        "d"
      ],
      [
        "he",
        "ar"
      ],
      [
        "B",
        "e"
      ],
      [
        "W",
        "ith"
      ],
      [
        "in",
        "ce"
      ],
      [
        "IN",
        "C"
      ],
      [
        "st",
        "r"
      ],
      [
        "ig",
        "n"
      ],
      [
        "W",
        "hy"
      ],
      [
        "g",
        "ive"
      ],
      [
        "O",
        "f"
      ],
      [
        "n",
        "a"
      ],
      [
        "su",
        "ch"
      ],
      [
        "F",
        "irst"
      ],
      [
        "l",
        "and"
      ],
      [
        "an",
        "g"
      ],
      [
        "A",
        "B"
      ],
      [
        "n",
        "ess"
      ],
      [
        "u",
        "ch"
      ],
      [
        "mo",
        "st"
      ],
      [
        "bl",
        "ood"
      ],
      [
        "d",
        "es"
      ],
      [
        "e",
        "x"
      ],
      [
        "st",
        "er"
      ],
      [
        "bro",
        "ther"
      ],
      [
        "b",
        "r"
      ],
      [
        "the",
        "se"
      ],
      [
        "he",
        "a"
      ],
      [
        "te",
        "ll"
      ],
      [
        "t",
        "is"
      ],
      [
        "an",
        "y"
      ],
      [
        "b",
        "a"
      ],
      [
        "e",
        "y"
      ],
      [
        "U",
        "E"
      ],
      [
        "is",
        "e"
      ],
      [
        "on",
        "our"
      ],
      [
        "b",
        "re"
      ],
      [
        "o",
        "ther"
      ],
      [
        "i",
        "m"
      ],
      [
        "w",
        "here"
      ],
      [
        "H",
        "ow"
      ],
      [
        "q",
        "ue"
      ],
      [
        "ll",
        "ow"
      ],
      [
        "C",
        "ome"
      ],
      [
        "l",
        "ess"
      ],
      [
        "t",
        "y"
      ],
      [
        "ar",
        "m"
      ],
      [
        "li",
        "fe"
      ],
      [
        "T",
        "his"
      ],
      [
        "T",
        "ER"
      ],
      [
        "c",
        "oun"
      ],
      [
        "l",
        "ook"
      ],
      [
        "ne",
        "w"
      ],
      [
        "S",
        "o"
      ],
      [
        "or",
        "t"
      ],
      [
        "UC",
        "H"
      ],
      [
        "W",
        "ho"
      ],
      [
        "fri",
        "end"
      ],
      [
        "g",
        "entle"
      ],
      [
        "ou",
        "l"
      ],
      [
        "G",
        "LO"
      ],
      [
        "u",
        "ght"
      ],
      [
        "v",
        "o"
      ],
      [
        "UC",
        "ES"
      ],
      [
        "GLO",
        "UCES"
      ],
      [
        "GLOUCES",
        "TER"
      ],
      [
        "c",
        "hi"
      ],
      [
        "ar",
        "s"
      ],
      [
        "a",
        "f"
      ],
      [
        "m",
        "is"
      ],
      [
        "v",
        "ing"
      ],
      [
        "ha",
        "st"
      ],
      [
        "ad",
        "y"
      ],
      [
        "L",
        "ord"
      ],
      [
        "a",
        "b"
      ],
      [
        "ur",
        "se"
      ],
      [
        "t",
        "s"
      ],
      [
        "R",
        "ome"
      ],
      [
        "R",
        "Y"
      ],
      [
        "n",
        "ight"
      ],
      [
        "r",
        "own"
      ],
      [
        "of",
        "f"
      ],
      [
        "fa",
        "ir"
      ],
      [
        "ma",
        "de"
      ],
      [
        "a",
        "ge"
      ],
      [
        "L",
        "E"
      ],
      [
        "Q",
        "UE"
      ],
      [
        "V",
        "INC"
      ],
      [
        "QUE",
        "EN"
      ],
      [
        "VINC",
        "ENTIO"
      ],
      [
        "h",
        "onour"
      ],
      [
        "O",
        "F"
      ],
      [
        "S",
        "e"
      ],
      [
        "m",
        "uch"
      ],
      [
        "an",
        "s"
      ],
      [
        "ti",
        "on"
      ],
      [
        "on",
        "d"
      ],
      [
        "I",
        "s"
      ],
      [
        "W",
        "here"
      ],
      [
        "li",
        "e"
      ],
      [
        "ur",
        "n"
      ],
      [
        "U",
        "M"
      ],
      [
        "L",
        "AN"
      ],
      [
        "st",
        "and"
      ],
      [
        "M",
        "ar"
      ],
      [
        "p",
        "re"
      ],
      [
        "H",
        "EN"
      ],
      [
        "con",
        "d"
      ],
      [
        "N",
        "ow"
      ],
      [
        "c",
        "he"
      ],
      [
        "na",
        "me"
      ],
      [
        "t",
        "le"
      ],
      [
        "e",
        "m"
      ],
      [
        "e",
        "f"
      ],
      [
        "HEN",
        "RY"
      ],
      [
        "n",
        "g"
      ],
      [
        "b",
        "er"
      ],
      [
        "p",
        "art"
      ],
      [
        "ne",
        "ver"
      ],
      [
        "fe",
        "ar"
      ],
      [
        "i",
        "o"
      ],
      [
        "Y",
        "our"
      ],
      [
        "c",
        "es"
      ],
      [
        "i",
        "es"
      ],
      [
        "l",
        "t"
      ],
      [
        "li",
        "ve"
      ],
      [
        "ow",
        "er"
      ],
      [
        "j",
        "o"
      ],
      [
        "s",
        "er"
      ],
      [
        "u",
        "ke"
      ],
      [
        "I",
        "t"
      ],
      [
        "c",
        "all"
      ],
      [
        "g",
        "reat"
      ],
      [
        "as",
        "s"
      ],
      [
        "Y",
        "OR"
      ],
      [
        "f",
        "o"
      ],
      [
        "he",
        "ad"
      ],
      [
        "YOR",
        "K"
      ],
      [
        "re",
        "e"
      ],
      [
        "m",
        "ent"
      ],
      [
        "u",
        "nd"
      ],
      [
        "O",
        "r"
      ],
      [
        "at",
        "ion"
      ],
      [
        "IN",
        "IUS"
      ],
      [
        "e",
        "ver"
      ],
      [
        "pr",
        "ay"
      ],
      [
        "can",
        "not"
      ],
      [
        "re",
        "d"
      ],
      [
        "tr",
        "ue"
      ],
      [
        "hea",
        "ven"
      ],
      [
        "P",
        "ET"
      ],
      [
        "a",
        "se"
      ],
      [
        "no",
        "ble"
      ],
      [
        "f",
        "l"
      ],
      [
        "p",
        "a"
      ],
      [
        "be",
        "en"
      ],
      [
        "swe",
        "et"
      ],
      [
        "for",
        "t"
      ],
      [
        "A",
        "n"
      ],
      [
        "D",
        "W"
      ],
      [
        "E",
        "DW"
      ],
      [
        "c",
        "o"
      ],
      [
        "EDW",
        "ARD"
      ],
      [
        "G",
        "R"
      ],
      [
        "d",
        "one"
      ],
      [
        "m",
        "er"
      ],
      [
        "be",
        "t"
      ],
      [
        ",",
        "--"
      ],
      [
        "T",
        "H"
      ],
      [
        "do",
        "th"
      ],
      [
        "i",
        "z"
      ],
      [
        "n",
        "or"
      ],
      [
        "ou",
        "gh"
      ],
      [
        "L",
        "UC"
      ],
      [
        "M",
        "EN"
      ],
      [
        "p",
        "t"
      ],
      [
        "r",
        "es"
      ],
      [
        "A",
        "y"
      ],
      [
        "d",
        "a"
      ],
      [
        "p",
        "p"
      ],
      [
        "u",
        "ll"
      ],
      [
        "w",
        "ar"
      ],
      [
        "ou",
        "se"
      ],
      [
        "T",
        "here"
      ],
      [
        "i",
        "e"
      ],
      [
        "com",
        "m"
      ],
      [
        "g",
        "r"
      ],
      [
        "in",
        "t"
      ],
      [
        "W",
        "hen"
      ],
      [
        "re",
        "st"
      ],
      [
        "E",
        "d"
      ],
      [
        "w",
        "r"
      ],
      [
        "be",
        "ar"
      ],
      [
        "M",
        "E"
      ],
      [
        "U",
        "T"
      ],
      [
        "gra",
        "ce"
      ],
      [
        "s",
        "oul"
      ],
      [
        "be",
        "fore"
      ],
      [
        "RO",
        "ME"
      ],
      [
        "Ed",
        "ward"
      ],
      [
        "ROME",
        "O"
      ],
      [
        "B",
        "y"
      ],
      [
        "s",
        "c"
      ],
      [
        "s",
        "s"
      ],
      [
        "EN",
        "IUS"
      ],
      [
        "bo",
        "th"
      ],
      [
        "wor",
        "ld"
      ],
      [
        "MEN",
        "ENIUS"
      ],
      [
        "R",
        "i"
      ],
      [
        "que",
        "en"
      ],
      [
        "a",
        "ce"
      ],
      [
        "H",
        "ere"
      ],
      [
        "L",
        "et"
      ],
      [
        "Th",
        "en"
      ],
      [
        "come",
        "s"
      ],
      [
        "ught",
        "er"
      ],
      [
        "R",
        "UCH"
      ],
      [
        "d",
        "own"
      ],
      [
        "p",
        "ri"
      ],
      [
        "or",
        "n"
      ],
      [
        "de",
        "ad"
      ],
      [
        "PET",
        "RUCH"
      ],
      [
        "PETRUCH",
        "IO"
      ],
      [
        "O",
        "M"
      ],
      [
        "ing",
        "s"
      ],
      [
        "T",
        "ES"
      ],
      [
        "l",
        "ong"
      ],
      [
        "ve",
        "d"
      ],
      [
        "it",
        "e"
      ],
      [
        "pr",
        "es"
      ],
      [
        "a",
        "ke"
      ],
      [
        "i",
        "ce"
      ],
      [
        "be",
        "ing"
      ],
      [
        "wi",
        "ck"
      ],
      [
        "Th",
        "an"
      ],
      [
        "r",
        "u"
      ],
      [
        "le",
        "ave"
      ],
      [
        "my",
        "self"
      ],
      [
        "ho",
        "ld"
      ],
      [
        "mo",
        "ther"
      ],
      [
        "C",
        "l"
      ],
      [
        "H",
        "A"
      ],
      [
        "M",
        "AR"
      ],
      [
        "or",
        "e"
      ],
      [
        "se",
        "t"
      ],
      [
        "c",
        "our"
      ],
      [
        "h",
        "ouse"
      ],
      [
        "p",
        "ut"
      ],
      [
        "th",
        "us"
      ],
      [
        "ca",
        "use"
      ],
      [
        "C",
        "OR"
      ],
      [
        "I",
        "Z"
      ],
      [
        "o",
        "p"
      ],
      [
        "re",
        "t"
      ],
      [
        "IO",
        "LAN"
      ],
      [
        "COR",
        "IOLAN"
      ],
      [
        "CORIOLAN",
        "US"
      ],
      [
        "N",
        "or"
      ],
      [
        "t",
        "ri"
      ],
      [
        "wi",
        "fe"
      ],
      [
        "Se",
        "cond"
      ],
      [
        "d",
        "er"
      ],
      [
        "u",
        "ck"
      ],
      [
        "w",
        "hi"
      ],
      [
        "be",
        "g"
      ],
      [
        "ey",
        "es"
      ],
      [
        "de",
        "ed"
      ],
      [
        "thou",
        "ght"
      ],
      [
        "B",
        "A"
      ],
      [
        "c",
        "l"
      ],
      [
        "Ri",
        "ch"
      ],
      [
        "d",
        "y"
      ],
      [
        "chi",
        "ld"
      ],
      [
        "IN",
        "A"
      ],
      [
        "po",
        "or"
      ],
      [
        "D",
        "o"
      ],
      [
        "S",
        "he"
      ],
      [
        "it",
        "iz"
      ],
      [
        "di",
        "e"
      ],
      [
        "itiz",
        "en"
      ],
      [
        "f",
        "oo"
      ],
      [
        "t",
        "ra"
      ],
      [
        "le",
        "d"
      ],
      [
        "a",
        "way"
      ],
      [
        "I",
        "V"
      ],
      [
        "ri",
        "ght"
      ],
      [
        "friend",
        "s"
      ],
      [
        "d",
        "s"
      ],
      [
        "II",
        "I"
      ],
      [
        "S",
        "ir"
      ],
      [
        "m",
        "ight"
      ],
      [
        "c",
        "rown"
      ],
      [
        "k",
        "s"
      ],
      [
        "p",
        "la"
      ],
      [
        "at",
        "ch"
      ],
      [
        "at",
        "ter"
      ],
      [
        "st",
        "ay"
      ],
      [
        "li",
        "ght"
      ],
      [
        "b",
        "id"
      ],
      [
        "t",
        "en"
      ],
      [
        "man",
        "y"
      ],
      [
        "W",
        "ar"
      ],
      [
        "f",
        "t"
      ],
      [
        "in",
        "s"
      ],
      [
        "War",
        "wick"
      ],
      [
        "a",
        "ch"
      ],
      [
        "g",
        "ri"
      ],
      [
        "l",
        "it"
      ],
      [
        "H",
        "is"
      ],
      [
        "t",
        "re"
      ],
      [
        "T",
        "is"
      ],
      [
        "p",
        "s"
      ],
      [
        "is",
        "on"
      ],
      [
        "po",
        "se"
      ],
      [
        "EL",
        "LA"
      ],
      [
        "ci",
        "ous"
      ],
      [
        "IS",
        "AB"
      ],
      [
        "ISAB",
        "ELLA"
      ],
      [
        "m",
        "i"
      ],
      [
        "an",
        "ge"
      ],
      [
        "no",
        "thing"
      ],
      [
        "Rome",
        "o"
      ],
      [
        "da",
        "ughter"
      ],
      [
        "R",
        "AN"
      ],
      [
        "b",
        "ra"
      ],
      [
        "g",
        "one"
      ],
      [
        "k",
        "ind"
      ],
      [
        "t",
        "al"
      ],
      [
        "t",
        "ong"
      ],
      [
        "fa",
        "ce"
      ],
      [
        "We",
        "ll"
      ],
      [
        "m",
        "ad"
      ],
      [
        "bet",
        "ter"
      ],
      [
        "I",
        "ET"
      ],
      [
        "J",
        "UL"
      ],
      [
        "k",
        "es"
      ],
      [
        "o",
        "se"
      ],
      [
        "p",
        "ar"
      ],
      [
        "for",
        "d"
      ],
      [
        "ti",
        "ll"
      ],
      [
        "ON",
        "TES"
      ],
      [
        "LE",
        "ONTES"
      ],
      [
        "JUL",
        "IET"
      ],
      [
        "N",
        "ay"
      ],
      [
        "V",
        "I"
      ],
      [
        "g",
        "u"
      ],
      [
        "en",
        "g"
      ],
      [
        "thou",
        "gh"
      ],
      [
        "pr",
        "ince"
      ],
      [
        "word",
        "s"
      ],
      [
        "I",
        "L"
      ],
      [
        "t",
        "ed"
      ],
      [
        "D",
        "Y"
      ],
      [
        "a",
        "ble"
      ],
      [
        "or",
        "s"
      ],
      [
        "un",
        "e"
      ],
      [
        "ear",
        "s"
      ],
      [
        "LA",
        "DY"
      ],
      [
        "C",
        "E"
      ],
      [
        "S",
        "T"
      ],
      [
        "V",
        "OL"
      ],
      [
        "w",
        "er"
      ],
      [
        "EN",
        "CE"
      ],
      [
        "sh",
        "ow"
      ],
      [
        "B",
        "R"
      ],
      [
        "T",
        "A"
      ],
      [
        "b",
        "an"
      ],
      [
        "i",
        "ther"
      ],
      [
        "t",
        "end"
      ],
      [
        "new",
        "s"
      ],
      [
        "C",
        "L"
      ],
      [
        "C",
        "itizen"
      ],
      [
        "S",
        "er"
      ],
      [
        "i",
        "c"
      ],
      [
        "s",
        "ent"
      ],
      [
        "be",
        "st"
      ],
      [
        "ur",
        "der"
      ],
      [
        "again",
        "st"
      ],
      [
        "P",
        "ro"
      ],
      [
        "th",
        "ose"
      ],
      [
        "jo",
        "y"
      ],
      [
        "S",
        "IC"
      ],
      [
        "b",
        "and"
      ],
      [
        "h",
        "our"
      ],
      [
        "s",
        "le"
      ],
      [
        "hen",
        "ce"
      ],
      [
        "lord",
        "s"
      ],
      [
        "lit",
        "tle"
      ],
      [
        "SIC",
        "INIUS"
      ],
      [
        "f",
        "ar"
      ],
      [
        "t",
        "ent"
      ],
      [
        "S",
        "ha"
      ],
      [
        "c",
        "y"
      ],
      [
        "c",
        "tion"
      ],
      [
        "ard",
        "on"
      ],
      [
        "U",
        "n"
      ],
      [
        "p",
        "ur"
      ],
      [
        "ke",
        "ep"
      ],
      [
        "t",
        "ain"
      ],
      [
        "t",
        "wo"
      ],
      [
        "st",
        "ill"
      ],
      [
        "he",
        "l"
      ],
      [
        "ch",
        "ar"
      ],
      [
        "de",
        "ar"
      ],
      [
        "la",
        "w"
      ],
      [
        "GR",
        "E"
      ],
      [
        "d",
        "en"
      ],
      [
        "p",
        "ower"
      ],
      [
        "me",
        "an"
      ],
      [
        "for",
        "th"
      ],
      [
        "ro",
        "y"
      ],
      [
        "him",
        "self"
      ],
      [
        "No",
        "t"
      ],
      [
        "f",
        "ull"
      ],
      [
        "Th",
        "y"
      ],
      [
        "ba",
        "ck"
      ],
      [
        "LUC",
        "IO"
      ],
      [
        "it",
        "s"
      ],
      [
        "un",
        "to"
      ],
      [
        "su",
        "b"
      ],
      [
        "Rich",
        "ard"
      ],
      [
        "H",
        "ave"
      ],
      [
        "e",
        "ch"
      ],
      [
        "pe",
        "ace"
      ],
      [
        "there",
        "fore"
      ],
      [
        "W",
        "ill"
      ],
      [
        "b",
        "es"
      ],
      [
        "f",
        "irst"
      ],
      [
        "r",
        "en"
      ],
      [
        "in",
        "ess"
      ],
      [
        "el",
        "se"
      ],
      [
        "tong",
        "ue"
      ],
      [
        "Y",
        "or"
      ],
      [
        "c",
        "ould"
      ],
      [
        "d",
        "uke"
      ],
      [
        "hi",
        "gh"
      ],
      [
        "as",
        "on"
      ],
      [
        "ri",
        "ed"
      ],
      [
        "ho",
        "pe"
      ],
      [
        "c",
        "ut"
      ],
      [
        "h",
        "us"
      ],
      [
        "ou",
        "ght"
      ],
      [
        "ar",
        "k"
      ],
      [
        "ne",
        "ed"
      ],
      [
        "con",
        "f"
      ],
      [
        "f",
        "ind"
      ],
      [
        "l",
        "ady"
      ],
      [
        "n",
        "at"
      ],
      [
        "th",
        "ine"
      ],
      [
        "you",
        "ng"
      ],
      [
        "ET",
        "H"
      ],
      [
        "EL",
        "IZ"
      ],
      [
        "ear",
        "th"
      ],
      [
        "AB",
        "ETH"
      ],
      [
        "und",
        "er"
      ],
      [
        "Yor",
        "k"
      ],
      [
        "ELIZ",
        "ABETH"
      ],
      [
        "G",
        "ood"
      ],
      [
        "c",
        "ha"
      ],
      [
        "d",
        "re"
      ],
      [
        "th",
        "r"
      ],
      [
        "ca",
        "me"
      ],
      [
        "I",
        "AN"
      ],
      [
        "g",
        "et"
      ],
      [
        "h",
        "ome"
      ],
      [
        "j",
        "e"
      ],
      [
        "j",
        "ust"
      ],
      [
        "m",
        "ind"
      ],
      [
        "o",
        "ple"
      ],
      [
        "r",
        "an"
      ],
      [
        "ma",
        "ster"
      ],
      [
        "H",
        "en"
      ],
      [
        "Y",
        "et"
      ],
      [
        "on",
        "ce"
      ],
      [
        "pe",
        "ople"
      ],
      [
        "hus",
        "band"
      ],
      [
        "Hen",
        "ry"
      ],
      [
        "I",
        "A"
      ],
      [
        "p",
        "ass"
      ],
      [
        "are",
        "well"
      ],
      [
        "see",
        "m"
      ],
      [
        "pla",
        "ce"
      ],
      [
        "P",
        "ER"
      ],
      [
        "l",
        "ay"
      ],
      [
        "s",
        "or"
      ],
      [
        "ha",
        "pp"
      ],
      [
        "qu",
        "i"
      ],
      [
        "af",
        "ter"
      ],
      [
        "A",
        "ll"
      ],
      [
        "W",
        "AR"
      ],
      [
        "W",
        "IC"
      ],
      [
        "c",
        "le"
      ],
      [
        "f",
        "all"
      ],
      [
        "st",
        "e"
      ],
      [
        "Sha",
        "ll"
      ],
      [
        "WAR",
        "WIC"
      ],
      [
        "WARWIC",
        "K"
      ],
      [
        "v",
        "ant"
      ],
      [
        "w",
        "hy"
      ],
      [
        "is",
        "ter"
      ],
      [
        "be",
        "d"
      ],
      [
        "we",
        "l"
      ],
      [
        "fe",
        "llow"
      ],
      [
        "fo",
        "llow"
      ],
      [
        "N",
        "urse"
      ],
      [
        "la",
        "st"
      ],
      [
        "n",
        "one"
      ],
      [
        "The",
        "y"
      ],
      [
        "ple",
        "ase"
      ],
      [
        "HA",
        "M"
      ],
      [
        "P",
        "UL"
      ],
      [
        "d",
        "r"
      ],
      [
        "g",
        "i"
      ],
      [
        "h",
        "or"
      ],
      [
        "p",
        "ardon"
      ],
      [
        "re",
        "p"
      ],
      [
        "hi",
        "ther"
      ],
      [
        "mor",
        "row"
      ],
      [
        "tr",
        "u"
      ],
      [
        "sa",
        "id"
      ],
      [
        "CA",
        "PUL"
      ],
      [
        "CAPUL",
        "ET"
      ],
      [
        "b",
        "u"
      ],
      [
        "d",
        "ou"
      ],
      [
        "e",
        "very"
      ],
      [
        "g",
        "l"
      ],
      [
        "ou",
        "d"
      ],
      [
        "hand",
        "s"
      ],
      [
        "br",
        "ing"
      ],
      [
        "M",
        "IO"
      ],
      [
        "g",
        "ue"
      ],
      [
        "k",
        "ill"
      ],
      [
        "p",
        "at"
      ],
      [
        "ous",
        "in"
      ],
      [
        "bo",
        "y"
      ],
      [
        "wo",
        "man"
      ],
      [
        "s",
        "hi"
      ],
      [
        "sha",
        "me"
      ],
      [
        "tr",
        "y"
      ],
      [
        "B",
        "UC"
      ],
      [
        "c",
        "ent"
      ],
      [
        "m",
        "ber"
      ],
      [
        "he",
        "ard"
      ],
      [
        "te",
        "m"
      ],
      [
        "KING",
        "HAM"
      ],
      [
        "UT",
        "US"
      ],
      [
        "BR",
        "UTUS"
      ],
      [
        "BUC",
        "KINGHAM"
      ],
      [
        "B",
        "OL"
      ],
      [
        "B",
        "RO"
      ],
      [
        "F",
        "rom"
      ],
      [
        "T",
        "RAN"
      ],
      [
        "b",
        "us"
      ],
      [
        "c",
        "lo"
      ],
      [
        "d",
        "ra"
      ],
      [
        "f",
        "f"
      ],
      [
        "i",
        "us"
      ],
      [
        "j",
        "est"
      ],
      [
        "at",
        "es"
      ],
      [
        "ING",
        "BRO"
      ],
      [
        "ES",
        "S"
      ],
      [
        "LA",
        "U"
      ],
      [
        "BOL",
        "INGBRO"
      ],
      [
        "TRAN",
        "IO"
      ],
      [
        "BOLINGBRO",
        "KE"
      ],
      [
        "M",
        "IL"
      ],
      [
        "c",
        "ar"
      ],
      [
        "s",
        "and"
      ],
      [
        "ut",
        "y"
      ],
      [
        "te",
        "ars"
      ],
      [
        "who",
        "se"
      ],
      [
        "vo",
        "st"
      ],
      [
        "pres",
        "ent"
      ],
      [
        "O",
        "ur"
      ],
      [
        "T",
        "IS"
      ],
      [
        "b",
        "ri"
      ],
      [
        "k",
        "en"
      ],
      [
        "v",
        "y"
      ],
      [
        "ma",
        "id"
      ],
      [
        "com",
        "p"
      ],
      [
        "roy",
        "al"
      ],
      [
        "c",
        "er"
      ],
      [
        "c",
        "ur"
      ],
      [
        "c",
        "ess"
      ],
      [
        "s",
        "en"
      ],
      [
        "s",
        "ince"
      ],
      [
        "w",
        "it"
      ],
      [
        "st",
        "ate"
      ],
      [
        "la",
        "ck"
      ],
      [
        "wr",
        "ong"
      ],
      [
        "G",
        "AR"
      ],
      [
        "K",
        "ing"
      ],
      [
        "N",
        "E"
      ],
      [
        "f",
        "al"
      ],
      [
        "g",
        "ar"
      ],
      [
        "me",
        "et"
      ],
      [
        "MAR",
        "GAR"
      ],
      [
        "sor",
        "row"
      ],
      [
        "MARGAR",
        "ET"
      ],
      [
        "A",
        "TH"
      ],
      [
        "g",
        "ain"
      ],
      [
        "s",
        "un"
      ],
      [
        "pr",
        "ison"
      ],
      [
        "ey",
        "e"
      ],
      [
        "O",
        "n"
      ],
      [
        "v",
        "ir"
      ],
      [
        "who",
        "m"
      ],
      [
        "CA",
        "L"
      ],
      [
        "whi",
        "le"
      ],
      [
        "hel",
        "p"
      ],
      [
        "B",
        "o"
      ],
      [
        "G",
        "EL"
      ],
      [
        "H",
        "OR"
      ],
      [
        "g",
        "en"
      ],
      [
        "l",
        "es"
      ],
      [
        "n",
        "ing"
      ],
      [
        "p",
        "i"
      ],
      [
        "t",
        "ing"
      ],
      [
        "v",
        "ere"
      ],
      [
        "x",
        "t"
      ],
      [
        "re",
        "me"
      ],
      [
        "it",
        "ion"
      ],
      [
        "thou",
        "sand"
      ],
      [
        "AN",
        "GEL"
      ],
      [
        "tr",
        "ess"
      ],
      [
        "OR",
        "D"
      ],
      [
        "sel",
        "ves"
      ],
      [
        "gra",
        "cious"
      ],
      [
        "ab",
        "out"
      ],
      [
        "ans",
        "wer"
      ],
      [
        "Cl",
        "ar"
      ],
      [
        "ANGEL",
        "O"
      ],
      [
        "C",
        "U"
      ]
    ]
  }
}